DEPTH = 1;
WIDTH = 3200;
ADDRESS_RADIX = DEC;
DATA_RADIX = BIN;
CONTENT
BEGIN
0 : 00000000000001001111111111000111000000000101010111111111110111001111111111000010111111111100010011111111101101001111111110101010111111111010010100000000001001010000000001000101111111111011010100000000001001101111111111110100111111111110111011111111111101111111111110110011111111111000110100000000001010000000000000000111111111111101001000000000101111000000000001001000111111111011000000000000101111010000000000100001111111111111101100000000000100010000000001100011000000000011101100000000001101011111111100011010111111111110110100000000010011011111111101010010000000001010010111111111001011000000000001101011000000000101101011111111101100110000000000000011000000000100111111111111111100001111111110011101111111111001000111111111100111111111111111001100111111111100101000000000001100101111111110101011111111111111101100000000010010101111111111111101000000000100000111111111110110000000000000101101111111111000101011111111110000111111111110100000000000000101110011111110110100101111111101011011111111111010000111111111101001000000000010101010111111111011011111111111010110000000000011010101000000000101110111111111110101010000000000101100111111110100101111111111111010001111111110011101000000001001110100000000000010000000000000000110000000000111110111111111100010011111111101011110111111111110011111111111101011000000000001011111000000000101010000000000000010000000000000100010111111111011110011111111101000011111111110010110111111111011101111111111111000000000000001000000111111111100011100000000100111011111111111000101000000000101000100000000001011001111111111101000000000000000010111111111110001001111111101011101111111111000100000000000000011011111111110011100111111110100110111111111010101111111111110000100111111111000100000000000010101000000000001010101000000000011011111111111010100110000000010101010000000000000100111111111101110001111111111110001111111111011110100000000001010101111111110110101000000000011000100000000001001000000000010101010111111111111011000000000000010000000000000110000111111111011011011111111110111110000000000011010000000000110111111111110111001101111111010101001111111111110001100000000011001011111111110100101000000000011101111111111110001100000000010011111111111110101010100000000010111001111111111111111111111111010011100000000000010100000000010000010000000000010001100000000001111111111111110110010000000001010000000000000001110111111111101111011111111111010100011111111011000101111111111100101111111111111110000000000001000011111111110010010000000000110010100000000000010101111111111111011000000000001100000000001001111011111111111011110111111110010100111111111110100011111111111001001000000000111011111111111111011111111111111000011000000001001111011111111100101100000000000101110000000000011111011111111101111010000000010000010000000000111111011111111011010011111111110110000000000001100001111111111100010110000000010100010000000000100010100000000011101110000000000111100111111111100010000000000011000011111111111000001000000000110000000000000010000101111111111110000000000000011010100000000000110000000000000001100000000001101011000000000010110100000000000010110000000000111111111111111100101000000000010011101000000000001001000000000000110000000000010010110;
END;
