DEPTH = 784;
WIDTH = 320;
ADDRESS_RADIX = DEC;
DATA_RADIX = BIN;
CONTENT
BEGIN
0 : 00000000000011100000000000001000000000000001000011111111111010101111111111101111111111111110110000000000000100100000000000001000111111111111111100000000000010111111111111111101000000000001101000000000000011100000000000000001000000000000100111111111111111110000000000000010000000000000010100000000000011000000000000000101;
1 : 00000000000001010000000000001111000000000000011100000000000001010000000000000110111111111110100100000000000000100000000000000011000000000000101011111111111101001111111111111110000000000000011000000000000100011111111111110100000000000000100111111111111100010000000000001100111111111111111100000000000100000000000000011000;
2 : 11111111111100101111111111111010111111111111011100000000000001101111111111110010111111111111001011111111111011100000000000011010111111111111101100000000000000011111111111111100111111111111110111111111111011011111111111110111000000000000101000000000000010011111111111101100000000000000100100000000000000001111111111111100;
3 : 11111111111011001111111111110011111111111111000111111111111101101111111111101101000000000000100100000000000001000000000000011010111111111111110000000000000100111111111111110000000000000001010011111111111010110000000000010010111111111111110111111111111101011111111111110000000000000000100011111111111100101111111111110100;
4 : 11111111111001110000000000001010111111111110110000000000000000111111111111110011111111111111010100000000000010011111111111110100000000000000010111111111111101100000000000010101000000000000100011111111111010110000000000000101111111111111100000000000000001010000000000001000111111111110110111111111111111111111111111111011;
5 : 00000000000001100000000000001101000000000000010100000000000100001111111111111101000000000000110111111111111101100000000000001101000000000000110111111111111111000000000000010110111111111111100100000000000000000000000000001000000000000000011011111111111101110000000000010100000000000000101111111111111110010000000000001011;
6 : 11111111111110100000000000000011000000000000100000000000000000110000000000000101000000000000001011111111111101101111111111110100111111111111101000000000000000111111111111111001000000000000110011111111111101001111111111101110000000000000100011111111111111110000000000000110000000000001010100000000000000110000000000001101;
7 : 11111111111010101111111111111000000000000000010100000000000011010000000000010001111111111110111000000000000001001111111111110110000000000000111011111111111011110000000000011000000000000000111100000000000100001111111111110010000000000000110000000000000011110000000000010001111111111111111011111111111111010000000000010100;
8 : 11111111111010010000000000000101000000000001010011111111111110011111111111110101000000000000110011111111111010101111111111110111111111111110101011111111111111111111111111110011000000000000111111111111111101111111111111101110000000000001001100000000000101110000000000010000000000000000101000000000000000010000000000001011;
9 : 11111111111110101111111111101000111111111111011111111111111100110000000000000001000000000000100100000000000100111111111111110111111111111111000111111111111110101111111111111010000000000000111100000000000000010000000000000101000000000000100000000000000101011111111111110100000000000000010000000000000010001111111111110100;
10 : 00000000000011000000000000000000111111111111110011111111111110000000000000001101111111111110100111111111111101010000000000001100111111111111000100000000000101000000000000010011000000000000011111111111111110110000000000001100111111111111000011111111111011011111111111110010111111111111101100000000000010111111111111111010;
11 : 00000000000000011111111111110010000000000000000011111111111110101111111111111110111111111111001011111111111010100000000000000101111111111111000111111111111100110000000000001100000000000001100111111111111100010000000000001100000000000001011111111111111101000000000000001101111111111111011100000000000100110000000000001000;
12 : 11111111111101000000000000010000000000000000010100000000000000101111111111101111000000000001000100000000000010100000000000010000000000000001000111111111111110000000000000000001111111111111010111111111111011110000000000000111111111111111111000000000000011001111111111110000000000000000000111111111111100100000000000010011;
13 : 00000000000011100000000000000010000000000000111100000000000100110000000000010101111111111111001100000000000101001111111111111101000000000000111000000000000100110000000000000001111111111111001000000000000000011111111111111010000000000000111100000000000010010000000000010011111111111110101111111111111100011111111111110111;
14 : 00000000000100100000000000010001000000000001000111111111111011101111111111110101111111111111111111111111111100100000000000010011111111111110111011111111111110000000000000001000000000000000010111111111111111000000000000011001111111111111001111111111111110111111111111101010000000000000011000000000000100101111111111111010;
15 : 00000000000001110000000000001100000000000000010011111111111111001111111111110110000000000000011011111111111011011111111111110010111111111110111000000000000010101111111111101100000000000000111111111111111010011111111111110011111111111111011111111111111111101111111111101101111111111111100100000000000011110000000000010101;
16 : 11111111111100110000000000000000111111111111110011111111111101010000000000001101000000000000101100000000000010001111111111110001000000000000101011111111111100001111111111111101111111111111101100000000000001100000000000001100000000000000000111111111111101111111111111110111111111111110110111111111111100101111111111111001;
17 : 00000000000100101111111111110111111111111111000111111111111101100000000000001001000000000000000000000000000000000000000000000001111111111110100100000000000001010000000000010110000000000000100011111111111101010000000000000101111111111111000000000000000011111111111111101100111111111111111111111111111101011111111111111101;
18 : 00000000000000011111111111111010000000000001011000000000000011011111111111110010111111111111001100000000000001010000000000010000111111111111011000000000000001110000000000001010000000000001011111111111111110010000000000001110000000000000000100000000000100111111111111111110000000000000001100000000000101011111111111110101;
19 : 11111111111011111111111111100110111111111111101111111111111110010000000000010101111111111110101000000000000011111111111111111010111111111111101011111111111010111111111111111101000000000000101111111111111011100000000000010010000000000001010100000000000100000000000000000011000000000001010100000000000000010000000000010011;
20 : 00000000000000111111111111101011111111111110110011111111111011111111111111110110111111111111001011111111111101001111111111110001111111111111101011111111111010011111111111101101000000000000101011111111111100011111111111111100000000000000000100000000000100100000000000010011111111111110111100000000000101101111111111111110;
21 : 11111111111110100000000000000101111111111111100000000000000000101111111111111110111111111111111100000000000001111111111111111001000000000000010111111111111100111111111111111001000000000001001011111111111010100000000000011001000000000000001000000000000010001111111111110001111111111111110100000000000110000000000000011000;
22 : 00000000000011100000000000000110111111111110111000000000000010001111111111110101000000000001001111111111111011101111111111111001000000000001001111111111111101010000000000010100000000000001101000000000000100110000000000010010111111111111110011111111111101101111111111101100000000000001001100000000000100011111111111111101;
23 : 11111111111110110000000000010010000000000001011000000000000010000000000000001100000000000001001000000000000011110000000000001010000000000001000111111111111111101111111111110110000000000001010011111111111101000000000000000001111111111111010011111111111101100000000000001011111111111111101111111111111111011111111111111001;
24 : 11111111111111101111111111110001111111111111110111111111111111101111111111110111000000000000000111111111111110110000000000010110000000000000001011111111111101000000000000000100000000000001101000000000000011111111111111111111000000000000011111111111111100101111111111111100111111111111000111111111111110101111111111110000;
25 : 00000000000011100000000000000100111111111111101011111111111100100000000000001010000000000000010000000000000001110000000000001111111111111111011111111111111011010000000000000000111111111111101011111111111010010000000000010100000000000001011011111111111110110000000000001011000000000000001011111111111111011111111111111010;
26 : 00000000000100010000000000000011000000000000101000000000000000111111111111110000111111111111001011111111111101010000000000001010111111111111011111111111111010011111111111111110111111111111001100000000000100000000000000000101111111111111110111111111111011000000000000001001111111111110110011111111111110010000000000000101;
27 : 00000000000011100000000000000001111111111111111011111111111101001111111111101111000000000000011100000000000000000000000000000010111111111110110000000000000010111111111111111011000000000000010100000000000010110000000000001100111111111110110100000000000101100000000000000100000000000000010100000000000010011111111111101101;
28 : 00000000000011111111111111111010000000000001001111111111111100011111111111111000000000000001001111111111111110101111111111110110111111111110100100000000000100010000000000010111000000000001010000000000000100000000000000000110000000000001010100000000000000100000000000010000000000000001011011111111111100110000000000001000;
29 : 00000000000100111111111111110110000000000000000011111111111110010000000000010111111111111111011000000000000000000000000000001100000000000000111100000000000010010000000000010100111111111111001011111111111010101111111111101111111111111111100000000000000010111111111111101101111111111111111000000000000010101111111111110100;
30 : 00000000000100111111111111110111000000000000100100000000000001001111111111111010111111111110110111111111111011110000000000011001111111111111011011111111111111001111111111111100000000000000011011111111111100101111111111111010000000000000001000000000000001111111111111101100000000000000100111111111111110111111111111110100;
31 : 00000000000010000000000000000000111111111111000011111111111011110000000000010101000000000000101100000000000000000000000000000010111111111111001011111111111010111111111111110010111111111111111000000000000001100000000000001111000000000001010000000000000101110000000000001110000000000000011100000000000011011111111111111100;
32 : 00000000000100111111111111111010111111111111000011111111111111101111111111101110000000000000111111111111111100011111111111111001000000000000000111111111111111101111111111110000000000000001010100000000000001000000000000001100111111111111001111111111111111011111111111111011000000000001011000000000000101100000000000010010;
33 : 11111111111110011111111111101011000000000000001100000000000010100000000000001000000000000000110111111111111011000000000000001010111111111111101111111111111110100000000000001000000000000000111011111111111101100000000000001011111111111111111011111111111111101111111111110110111111111111000000000000000100111111111111111111;
34 : 00000000000011001111111111111101111111111110110011111111111100101111111111111010000000000000000011111111111110110000000000000110111111111110100100000000000011101111111111110000000000000001100100000000000000110000000000001101000000000000100011111111111100000000000000001100111111111110101111111111111110111111111111111111;
35 : 00000000000010101111111111110101000000000000001111111111111111011111111111110001111111111110111111111111111111010000000000010001000000000000000111111111111011110000000000010010111111111111001011111111111010101111111111111001111111111111001111111111111101001111111111110001111111111110111011111111111101101111111111111101;
36 : 11111111111011101111111111101011000000000000001111111111111101010000000000000111111111111111111011111111111101011111111111111111111111111111101011111111111111101111111111111011000000000001000000000000000100010000000000001100000000000001011011111111111111100000000000010011111111111110110100000000000101010000000000001101;
37 : 11111111111101011111111111110001111111111110101111111111111110010000000000010001111111111111010000000000000000000000000000011000000000000000000011111111111101010000000000000010000000000001101000000000000001100000000000010100111111111111001000000000000001111111111111110010111111111110110000000000000101111111111111101110;
38 : 00000000000011010000000000001000000000000000000111111111111111011111111111110111000000000001000111111111111100001111111111111000111111111111001100000000000001100000000000001111000000000001101011111111111110000000000000011000000000000001100100000000000100101111111111111001111111111111111000000000000000010000000000010011;
39 : 11111111111111011111111111110001111111111111011011111111111110110000000000010011000000000001010011111111111011100000000000001001111111111111010000000000000000011111111111110001000000000000001011111111111010101111111111111010111111111111011011111111111100000000000000001110000000000001000000000000000000001111111111110011;
40 : 11111111111111110000000000000110111111111111110111111111111100101111111111110011111111111110111000000000000011111111111111111011000000000000010011111111111110000000000000001110000000000001011111111111111101100000000000011000000000000000110100000000000100001111111111111100111111111111110000000000000010011111111111101101;
41 : 00000000000001111111111111110010111111111110111000000000000100100000000000000000000000000000110000000000000001010000000000001110111111111110111000000000000000111111111111110011000000000001001100000000000011011111111111110111000000000001011011111111111101011111111111101101111111111111110111111111111011010000000000000010;
42 : 11111111111101101111111111101100000000000000000111111111111100010000000000001010000000000001000100000000000010001111111111110000000000000000100100000000000011110000000000000011111111111111111111111111111110100000000000001110000000000001001100000000000000010000000000001110111111111110111111111111111101001111111111111111;
43 : 00000000000001100000000000001100111111111111101111111111111111001111111111111100111111111111011111111111111101110000000000000111111111111111000100000000000100000000000000000011000000000001010111111111111100111111111111110100000000000001101000000000000001101111111111111100111111111111010100000000000101100000000000010110;
44 : 11111111111110011111111111110100000000000000011100000000000100001111111111111111000000000000010000000000000000110000000000000001111111111111110111111111111110110000000000010010111111111111010100000000000011000000000000010000111111111111110000000000000011100000000000010000000000000000001011111111111110100000000000001110;
45 : 11111111111101010000000000000110111111111111101011111111111110100000000000000011000000000000111111111111111011100000000000011001111111111110101000000000000100001111111111110001111111111111011111111111111101111111111111110011000000000001010100000000000100101111111111101110111111111111001111111111111110110000000000010001;
46 : 00000000000011001111111111110100111111111111001011111111111101100000000000001111111111111111111011111111111011011111111111111101111111111110101100000000000100001111111111110101000000000001000111111111111010000000000000001110000000000001001000000000000001000000000000010010000000000000000000000000000000110000000000001010;
47 : 00000000000011110000000000001011000000000000001011111111111111111111111111111001111111111111000111111111111101101111111111110101000000000001010011111111111100100000000000010000000000000000111111111111111101010000000000001101111111111111110011111111111111010000000000001010111111111110111011111111111101111111111111110011;
48 : 00000000000000011111111111110010111111111111100000000000000000011111111111110100000000000001010111111111111111110000000000011000111111111111000000000000000010010000000000010011111111111111001000000000000001100000000000000011111111111111110011111111111110101111111111111111111111111111000000000000000010001111111111110110;
49 : 00000000000001011111111111110000000000000001010100000000000000001111111111110000000000000000100100000000000000001111111111111001111111111111011011111111111010010000000000001110111111111111100000000000000010100000000000010100000000000000010000000000000101010000000000000011000000000000110000000000000100000000000000010101;
50 : 00000000000010010000000000000000111111111111011011111111111111111111111111111101111111111110100111111111111111011111111111111011111111111110110000000000000000100000000000010110111111111111100111111111111010000000000000000101000000000001010011111111111011100000000000001010000000000000000011111111111011010000000000000111;
51 : 11111111111111101111111111101011111111111111011111111111111101011111111111111010000000000000100000000000000101000000000000011000111111111110101111111111111111011111111111110010000000000001101111111111111011110000000000000011000000000001001000000000000011100000000000010100000000000000011100000000000010001111111111110111;
52 : 00000000000000000000000000000101000000000000111011111111111101111111111111110101000000000000110111111111111101000000000000000100111111111110100011111111111101000000000000010111000000000000010000000000000011010000000000001010000000000000000011111111111011010000000000001010000000000000011011111111111110111111111111110011;
53 : 11111111111111100000000000000010000000000001011011111111111101011111111111110000000000000000011111111111111100011111111111111011000000000001000111111111111010001111111111110011000000000001010100000000000100101111111111110000111111111111000000000000000000101111111111101010111111111110101111111111111111110000000000001100;
54 : 00000000000000000000000000000001000000000001011011111111111010100000000000001101111111111110110100000000000100000000000000010000111111111110110111111111111110000000000000000011000000000001011100000000000001101111111111101111000000000000100000000000000100100000000000010100111111111111000100000000000011111111111111111110;
55 : 00000000000010110000000000001110111111111110110100000000000000011111111111110111111111111111110011111111111100001111111111111110111111111111101011111111111100011111111111111111000000000000010011111111111010100000000000000101000000000000111100000000000101110000000000001110111111111111011000000000000101101111111111111010;
56 : 00000000000010101111111111110100000000000000110000000000000100111111111111110111000000000000010111111111111110000000000000011001111111111111000011111111111010000000000000000110111111111111010100000000000000100000000000011001000000000001100100000000000010001111111111101111000000000001010100000000000100100000000000000101;
57 : 00000000000000111111111111101010000000000001000011111111111101110000000000010101000000000000110011111111111101011111111111111001000000000000010011111111111010010000000000001011111111111111111011111111111111011111111111111010111111111111111011111111111100000000000000001000111111111111010011111111111111101111111111110001;
58 : 11111111111011010000000000010000111111111111011111111111111110110000000000001010000000000001010000000000000000110000000000000100111111111111100111111111111101010000000000010101000000000001001011111111111110100000000000001000111111111110111011111111111100000000000000010001111111111111110111111111111101000000000000001110;
59 : 11111111111110011111111111100111111111111111100000000000000001110000000000000100111111111111100111111111111110011111111111111011000000000001000000000000000011000000000000010010000000000001100000000000000001000000000000001101111111111111110111111111111101011111111111111100000000000000100000000000000101100000000000001100;
60 : 00000000000000000000000000001000111111111111001011111111111100010000000000000001000000000000010011111111111010110000000000010010000000000000110011111111111010100000000000001111111111111111001100000000000010110000000000000110111111111111110000000000000010010000000000010000000000000001001000000000000101101111111111111010;
61 : 11111111111010101111111111101010111111111111110100000000000001111111111111111110111111111110100111111111111110011111111111110100111111111110110011111111111100000000000000000101111111111111100000000000000010000000000000000010111111111111100000000000000101011111111111101111000000000001011000000000000110000000000000011000;
62 : 00000000000011110000000000000100000000000000111011111111111110111111111111101111000000000000001100000000000100110000000000000000000000000000000100000000000010111111111111111100000000000001101011111111111111010000000000000111000000000000100000000000000011111111111111110010000000000001011111111111111101001111111111111000;
63 : 11111111111111010000000000001000111111111111100100000000000011000000000000001001000000000000101111111111111111110000000000010001111111111110101111111111111110110000000000001000000000000001011011111111111101100000000000010100000000000001101100000000000101010000000000001000000000000000000000000000000011011111111111110111;
64 : 11111111111011000000000000001111111111111111001000000000000001100000000000001011111111111110101011111111111110100000000000010011000000000001010011111111111101101111111111111000111111111111000111111111111101001111111111110100000000000001110111111111111101111111111111110101111111111110101100000000000010101111111111111111;
65 : 00000000000110000000000000000111000000000001011000000000000100100000000000000101000000000000110111111111111011111111111111111110111111111110101100000000000001110000000000001010000000000001011111111111111010100000000000001000000000000001101100000000000010000000000000010011111111111111111111111111111110100000000000010000;
66 : 11111111111110001111111111110001000000000000001100000000000011011111111111110101000000000000011011111111111110010000000000010110000000000000010111111111111101010000000000010000111111111111001011111111111010000000000000010110000000000001111100000000000011100000000000000010111111111110111011111111111011100000000000000110;
67 : 00000000000010110000000000000101111111111111110011111111111011101111111111101000000000000000001000000000000011011111111111111100111111111111101011111111111101000000000000000110000000000000001111111111111100111111111111110011000000000001110000000000000010000000000000011110000000000000110000000000000000011111111111111000;
68 : 11111111111110111111111111101010000000000000001011111111111100000000000000000001111111111110111111111111111011000000000000011010000000000000111000000000000000000000000000000110000000000001010011111111111100000000000000010111000000000001010100000000000000110000000000010101111111111111011100000000000010010000000000001010;
69 : 00000000000101000000000000001000000000000001011000000000000010011111111111110111000000000001010100000000000101110000000000000000000000000000010111111111111011011111111111111000111111111111001111111111111101000000000000001001000000000000100000000000000000110000000000010101000000000000111111111111111010000000000000001010;
70 : 00000000000010101111111111011101111111111111000111111111111101111111111111100000111111111111010111111111111100110000000000010000000000000000100111111111111011110000000000000011000000000001011011111111111010001111111111110001000000000001101100000000000101110000000000011001111111111111100111111111111101101111111111111000;
71 : 00000000000000101111111111101110000000000001001111111111111111101111111111111100111111111111111011111111111110000000000000000110111111111111011011111111111110000000000000010101000000000000011000000000000011110000000000001110000000000000101011111111111101110000000000001000000000000000000111111111111010001111111111101101;
72 : 11111111111011111111111111110100000000000000000100000000000000011111111111111110111111111111010000000000000011110000000000011010000000000000011000000000000010010000000000001101000000000000101000000000000001010000000000010100000000000000001011111111111101110000000000010101000000000000101111111111111010010000000000000001;
73 : 00000000000001011111111111110010111111111111000100000000000000001111111111111100111111111111011000000000000011100000000000000110000000000000100011111111111001010000000000010001000000000000110011111111111100001111111111111011000000000001000000000000000011010000000000011000000000000000101000000000000011110000000000010111;
74 : 11111111111011001111111111010111111111111111000011111111111100001111111111101010000000000001001100000000000011100000000000000001000000000000110011111111111101111111111111111011111111111111111000000000000000110000000000000101000000000001110100000000000010010000000000011011111111111111101111111111111101111111111111101110;
75 : 00000000000011111111111111100100000000000000111100000000000001111111111111111010000000000000101000000000000000110000000000000011111111111111101111111111111010100000000000000111000000000001101011111111111101110000000000010001000000000001011100000000000101010000000000000100000000000000000100000000000011100000000000000000;
76 : 11111111111011101111111111111011000000000001010000000000000010010000000000001000111111111111111011111111111011010000000000011001000000000001011111111111111011010000000000010111000000000000000111111111111111011111111111110100000000000001110100000000000011100000000000001111000000000000101100000000000100000000000000001001;
77 : 00000000000010100000000000000110111111111111101111111111111010110000000000001110111111111110111011111111111110110000000000010110000000000001011100000000000010110000000000010011111111111111111011111111111111100000000000010100000000000000001100000000000000011111111111110011111111111111101000000000000010010000000000000011;
78 : 00000000000001011111111111111101000000000000110011111111111101001111111111101100111111111110100111111111111101111111111111111100000000000000101100000000000000010000000000000001111111111111111111111111111011011111111111110001000000000000000100000000000001000000000000000001111111111111010000000000000010100000000000001001;
79 : 11111111111011010000000000001100000000000000101111111111111111010000000000001100111111111110110111111111111100101111111111111111000000000000111000000000000010001111111111110010000000000001101111111111111001100000000000001000000000000000100100000000000101000000000000010100000000000000111000000000000100110000000000001111;
80 : 11111111111011001111111111101110111111111110111000000000000100110000000000010010000000000000001111111111111110101111111111111111111111111111101100000000000001100000000000010000000000000000110011111111111010110000000000001011111111111111011000000000000110000000000000010010111111111111100111111111111111110000000000010101;
81 : 00000000000010110000000000000100111111111111000000000000000001101111111111111111111111111111010111111111111010011111111111110000000000000000111011111111111101100000000000001110000000000001010000000000000001000000000000011001000000000001010000000000000011000000000000000110000000000000000111111111111111001111111111110101;
82 : 00000000000011100000000000001000111111111111011000000000000101000000000000000000000000000000011000000000000000001111111111110111111111111110111011111111111100101111111111101111000000000001001111111111111010100000000000010001000000000001011100000000000011111111111111111110000000000000000111111111111111111111111111110101;
83 : 11111111111110101111111111101000111111111111010100000000000001010000000000001111000000000001001011111111111110101111111111111011000000000000101000000000000011101111111111110011111111111111001100000000000001101111111111111111111111111111111100000000000001001111111111111101000000000000010100000000000000010000000000000101;
84 : 00000000000001111111111111111000000000000000010011111111111011100000000000001010111111111111000011111111111011100000000000010110111111111110111000000000000101000000000000000011000000000001000100000000000010111111111111110110111111111111110011111111111101111111111111101011000000000001000000000000000100010000000000001010;
85 : 00000000000010101111111111101111000000000001001011111111111101011111111111110100111111111110111100000000000011101111111111101111111111111111011111111111111101010000000000010110111111111111110111111111111100010000000000000000000000000000001111111111111110101111111111101011000000000001000000000000000011110000000000010100;
86 : 11111111111010110000000000001010000000000001000011111111111111111111111111101111111111111111101011111111111010100000000000000001111111111111011011111111111011010000000000000001111111111111011111111111111011101111111111111010111111111111010100000000000011011111111111110011111111111111000000000000000101100000000000010000;
87 : 00000000000010101111111111101110000000000001011000000000000100001111111111111001111111111110111111111111111110010000000000001110111111111111100000000000000000111111111111111000111111111111011111111111111001111111111111110010000000000001000100000000000100110000000000001100111111111111010100000000000100010000000000000111;
88 : 00000000000011001111111111101000111111111111100111111111111111011111111111110011111111111111000000000000000010110000000000000011111111111111111100000000000001000000000000000001000000000000100000000000000011000000000000001101000000000001100011111111111011110000000000001000111111111111001000000000000100111111111111111001;
89 : 11111111111101000000000000001011000000000000010000000000000010110000000000010011000000000000010000000000000011011111111111110001000000000000010100000000000011011111111111110010000000000001001111111111111100011111111111111110111111111111100100000000000011011111111111101110000000000001010100000000000001010000000000001110;
90 : 00000000000100100000000000000000111111111110110011111111111111110000000000000011000000000000110100000000000100110000000000011001000000000000010100000000000001110000000000010010000000000000100111111111111001110000000000000011000000000000000111111111111010101111111111111001000000000001011011111111111110100000000000000100;
91 : 11111111111100010000000000001100111111111111111000000000000001011111111111110010000000000000111000000000000100001111111111111101000000000000000011111111111101010000000000000000111111111111010111111111111111110000000000010100000000000010001100000000000001110000000000010110111111111111001011111111111110110000000000001110;
92 : 11111111111110010000000000010001000000000000011111111111111111101111111111100111000000000001001111111111111111011111111111111001111111111111011011111111111010101111111111111011111111111111110100000000000000110000000000000100000000000001100100000000000001100000000000000001111111111111000100000000000110010000000000000111;
93 : 00000000000000010000000000000010111111111111001011111111111011101111111111111001111111111111101111111111111011101111111111111010000000000000001000000000000010101111111111111000000000000010000100000000000100000000000000000001000000000000100111111111111100110000000000010010000000000000011011111111111100010000000000010001;
94 : 00000000000111111111111111101000000000000000111100000000000100001111111111111010111111111110111000000000000001000000000000010010000000000000100100000000000001111111111111111000000000000000001100000000000100001111111111110000000000000000010100000000000101000000000000001010111111111110111111111111111111000000000000001111;
95 : 00000000000010111111111111101010000000000000100100000000000010101111111111101100111111111111100111111111111110001111111111110011000000000000010011111111111001111111111111110110000000000001111100000000000010000000000000010011000000000010001000000000000000110000000000011111111111111111001100000000000011000000000000001110;
96 : 00000000000110000000000000000001111111111111111111111111111100111111111111110101111111111111001000000000001001101111111111111000111111111111000111111111111010001111111111101000000000000010101100000000000100111111111111101110000000000001111000000000000110000000000000001011111111111101110111111111111111011111111111101101;
97 : 00000000000111011111111111110000000000000001100000000000000100111111111111101010111111111111000100000000000111000000000000000100000000000000011111111111111111111111111111111101000000000000111111111111111101001111111111101001000000000000110100000000000011010000000000101101111111111101100100000000000010110000000000000111;
98 : 00000000000011011111111111100001000000000000110011111111111101111111111111011100111111111110101000000000000010010000000000000010111111111110110000000000000001111111111111100111000000000001010111111111111100111111111111101111000000000010010000000000000010000000000000010101111111111111111000000000000010001111111111110010;
99 : 00000000000010001111111111001111111111111111111100000000000100001111111111101110111111111111101100000000000111011111111111101110000000000001011111111111111000110000000000000101000000000000000111111111111011011111111111111011000000000010101100000000000011100000000000101000111111111110100011111111111101000000000000010111;
100 : 00000000000011011111111111011101000000000000100100000000000000101111111111100100111111111110100111111111111110101111111111110001000000000000001111111111111011101111111111110010111111111111001111111111111000110000000000000100000000000001110100000000000001000000000000000111111111111110111111111111111010100000000000010010;
101 : 11111111111001101111111111011100000000000000000100000000000011000000000000000100000000000000011111111111111101111111111111110101000000000010010111111111111100001111111111111101000000000001000011111111110110101111111111110110000000000001111100000000000011010000000000010111111111111111100111111111111000111111111111110000;
102 : 11111111110110111111111110101010000000000000101111111111111101101111111111100100000000000000010011111111111100110000000000011110111111111111101100000000000001111111111111110111000000000001000011111111110110100000000000001001000000000011010011111111111100110000000000011111000000000000011111111111110110110000000000000111;
103 : 00000000000000011111111111000100000000000000000100000000000001011111111111110100111111111110010011111111111010110000000000001010000000000001000111111111111100000000000000001011000000000000111111111111110101101111111111111100000000000010011000000000000100000000000000010111000000000001000011111111111010101111111111111110;
104 : 00000000000001011111111111001110111111111111011000000000000000111111111111101100111111111111010000000000000101100000000000000000000000000000000111111111111100111111111111111101000000000000110111111111111000000000000000010111000000000011000000000000000011010000000000001010000000000001110111111111111001110000000000000010;
105 : 11111111111010111111111111000101000000000000111100000000000001101111111111111011000000000000101011111111111100100000000000000011111111111111101111111111111000110000000000000010111111111111110111111111111111010000000000001101000000000010101100000000000101110000000000000001000000000001100011111111111110001111111111110111;
106 : 11111111111011101111111111001110111111111111010000000000000010011111111111101100111111111111001100000000000100000000000000010011000000000000111111111111111001100000000000000011000000000000100000000000000001011111111111111100000000000001010000000000000100110000000000000011111111111111110011111111111110010000000000001100;
107 : 11111111111101001111111111100010111111111111100100000000000001001111111111101101111111111110100100000000000100000000000000000010000000000001011100000000000000110000000000001000000000000001010111111111111011000000000000000111000000000001000000000000000010111111111111111111111111111111010000000000000001000000000000010001;
108 : 00000000000100100000000000001100111111111111100000000000000010110000000000000110111111111110100100000000000101011111111111111110000000000000000111111111111010010000000000001010000000000001100111111111111110010000000000000000000000000001100100000000000100010000000000001110000000000000010100000000000011011111111111111011;
109 : 11111111111011101111111111101000000000000001001111111111111111110000000000000010000000000000010100000000000101000000000000011001000000000000000100000000000100010000000000000111000000000000011111111111111011010000000000000101000000000000101100000000000100011111111111110111000000000000001111111111111011100000000000010101;
110 : 00000000000010101111111111110001111111111111011111111111111111001111111111101101000000000000110000000000000000000000000000011000111111111110101100000000000000110000000000000101000000000001100100000000000000110000000000000101111111111111111000000000000001110000000000000110111111111111100100000000000011101111111111110001;
111 : 11111111111111001111111111101011111111111111100011111111111101001111111111110001111111111111111000000000000100011111111111111101111111111111010100000000000000100000000000010100000000000001100111111111111111101111111111101111111111111111011000000000000101100000000000010100111111111110101100000000000000000000000000001000;
112 : 11111111111101110000000000000101000000000001000111111111111100100000000000010011111111111111011111111111111011010000000000001011000000000000100100000000000101000000000000001010000000000000000000000000000100100000000000010000111111111111110111111111111110001111111111101010111111111110111000000000000010100000000000010101;
113 : 00000000000100000000000000001010111111111111111111111111111111100000000000000101111111111111010111111111111100010000000000010110000000000000000111111111111101111111111111110111111111111111101100000000000100100000000000000000000000000000111111111111111100100000000000000001000000000000101000000000000001010000000000000100;
114 : 11111111111111110000000000001010111111111111101011111111111111000000000000010110111111111111111000000000000010011111111111111110111111111110100000000000000000000000000000010100111111111111000100000000000011110000000000000111000000000000100111111111111110010000000000000001000000000000111000000000000010110000000000000010;
115 : 11111111111100101111111111111011000000000000001000000000000010011111111111110110000000000001010011111111111011100000000000000111000000000000110000000000000001000000000000000010000000000001100011111111111110100000000000010101000000000000011011111111111100011111111111111100000000000000100000000000000100000000000000001011;
116 : 00000000000011111111111111110100111111111110111100000000000010110000000000000100000000000001010011111111111100111111111111111101111111111111001011111111111111111111111111111000000000000001100111111111111111011111111111111010000000000000000000000000000000110000000000010001000000000001011011111111111100010000000000001101;
117 : 11111111111101011111111111110010000000000001011000000000000100111111111111111010000000000001000011111111111101010000000000000011111111111111001111111111111010101111111111101011000000000000110011111111111101001111111111110100000000000001101000000000000011100000000000001001000000000000010111111111111100111111111111101110;
118 : 00000000000100101111111111110101000000000000101100000000000101001111111111111000111111111111011100000000000101001111111111111101111111111110110011111111111101001111111111110111000000000000110011111111111100000000000000011010000000000000111111111111111111000000000000000101111111111111010000000000000011011111111111110111;
119 : 00000000000101011111111111111110111111111111111011111111111100111111111111101101000000000000010011111111111111000000000000001110000000000000101100000000000001001111111111111100000000000001001100000000000100011111111111111111000000000000010111111111111011000000000000000110111111111110111111111111111111001111111111101101;
120 : 00000000000111111111111111100111111111111111001111111111111101101111111111100100000000000000000111111111111100100000000000010000000000000000011011111111111110101111111111100100000000000001101000000000000001001111111111101111000000000010000100000000000001110000000000011000111111111110110100000000000010110000000000001110;
121 : 00000000001101111111111111100011111111111111110011111111111110110000000000001100111111111111110100000000000100100000000000010110111111111110111000000000000010111111111111111001000000000000111000000000000011011111111111101110000000000001101111111111111101110000000000101101111111111111011000000000000101101111111111110010;
122 : 00000000001110111111111111011110111111111111010100000000000100111111111111111001000000000000011011111111111111100000000000011000111111111111101011111111111111101111111111010101000000000010010000000000000111010000000000000111000000000001110011111111111101000000000000110010111111111111001100000000000000101111111111101010;
123 : 00000000001100011111111111100101111111111110111011111111111101110000000000000010111111111110101000000000000011100000000000011101111111111111011111111111111011101111111111110100000000000010110100000000000110011111111111101010000000000000111000000000000111000000000000100001111111111100111111111111111111101111111111111001;
124 : 00000000001110011111111111011011000000000000101100000000000001011111111111110010111111111111110100000000000001110000000000010110111111111110010100000000000001101111111111111001000000000001000000000000001111000000000000000011000000000001000000000000000010000000000000011001111111111110001111111111111011101111111111100101;
125 : 00000000001000111111111111011001000000000000000011111111111111011111111111100010111111111111111000000000000111000000000000000100111111111111100000000000000000110000000000000110000000000001100100000000001010001111111111100101000000000001000000000000000111010000000000011011111111111110001111111111111001010000000000001001;
126 : 00000000000011001111111111010110111111111111111100000000000001011111111111100110111111111111110100000000000010110000000000100011111111111111001111111111111001001111111111101000000000000001100000000000000101100000000000001011000000000001101100000000000001010000000000101111111111111110100111111111111001001111111111110101;
127 : 11111111111101001111111111011010000000000000000100000000000101001111111111100001111111111110111100000000000101110000000000101100000000000001001011111111111000100000000000000010111111111111101000000000000100010000000000001010000000000001001100000000000000000000000000101010111111111100111011111111111011011111111111111111;
128 : 00000000000000011111111111011111111111111111000100000000000000111111111111010111000000000000101011111111111011110000000000011001000000000000101111111111111010011111111111110001000000000000001000000000000010011111111111100101111111111110110100000000000011001111111111111000111111111110001011111111111100110000000000000001;
129 : 11111111111111011111111111100001111111111111001011111111111111011111111111110000111111111110100100000000000010101111111111101110111111111110111111111111110101101111111111110110000000000000001011111111111101001111111111110011000000000001010000000000000010010000000000010011111111111111010011111111111100111111111111110110;
130 : 00000000000000101111111111100111000000000000001011111111111101011111111111110000000000000000110111111111111001111111111111110111111111111111110011111111111110001111111111110111000000000000110000000000000000000000000000000011000000000000110111111111111100000000000000010001111111111111010011111111111101011111111111101010;
131 : 11111111111100111111111111010101111111111111010000000000000001010000000000000110000000000000010111111111111011000000000000000111111111111110001011111111111101000000000000001100000000000000001011111111111000000000000000001010000000000010110000000000000010010000000000000111000000000000110111111111111111101111111111101000;
132 : 00000000000001001111111111110100111111111111010011111111111101011111111111110010000000000001010111111111110111011111111111111101111111111111111111111111111111101111111111111001111111111111101011111111110101101111111111111111000000000010000000000000000001111111111111110010000000000000110000000000000100000000000000000111;
133 : 11111111111101111111111111100010111111111111101100000000000100010000000000001110000000000001001100000000000011100000000000011101111111111111111111111111111101100000000000001110111111111111010111111111110100110000000000000111000000000001010111111111111111011111111111111011000000000000011000000000000000001111111111111110;
134 : 11111111111000101111111111110110000000000000010111111111111111001111111111111000111111111110111100000000000010010000000000011000111111111111010111111111111100110000000000000101111111111111110111111111111010011111111111110110000000000010001000000000000101100000000000000001000000000000000100000000000101100000000000001000;
135 : 11111111111110101111111111110110000000000000010100000000000001111111111111110110111111111111001111111111111011110000000000000001000000000000101011111111111110100000000000001011000000000000001111111111111110101111111111110011000000000000101100000000000110000000000000000010000000000001100100000000000011101111111111110011;
136 : 00000000000010111111111111111110111111111111000011111111111110101111111111111111000000000001010011111111111011100000000000010011111111111110111000000000000001010000000000000011111111111111100100000000000011010000000000000101111111111111010000000000000011011111111111111000000000000001001000000000000000110000000000000010;
137 : 11111111111111110000000000010001111111111111000011111111111011101111111111110000000000000001001011111111111111010000000000000010111111111110111011111111111101100000000000011000111111111111100011111111111101010000000000010110111111111111010011111111111101010000000000000101000000000000111011111111111110111111111111110001;
138 : 11111111111111111111111111101011111111111111101000000000000011001111111111110101111111111111010111111111111110101111111111111011111111111110111000000000000011111111111111110110111111111111110011111111111111011111111111111000111111111111110000000000000001101111111111110010000000000000001000000000000001111111111111110011;
139 : 11111111111110110000000000001100000000000000110011111111111010100000000000001010111111111111011011111111111011100000000000010101000000000000011000000000000010011111111111110000000000000001010100000000000001001111111111110100000000000000001100000000000010001111111111111010000000000001000111111111111111001111111111110010;
140 : 11111111111011011111111111111110111111111111110111111111111011101111111111111010000000000000100011111111111110000000000000011010000000000000111111111111111011111111111111111001111111111111111100000000000100101111111111111001000000000001001100000000000101111111111111110010111111111110101111111111111110010000000000000000;
141 : 11111111111011111111111111110011111111111111011100000000000101100000000000010100111111111110111011111111111100100000000000001011111111111110100011111111111110000000000000001110000000000001101011111111111110100000000000001101111111111111101100000000000011110000000000000100111111111111010100000000000000110000000000010001;
142 : 00000000000100000000000000001010000000000001010100000000000010111111111111111111111111111111101011111111111011101111111111111110000000000001001011111111111101011111111111111101000000000000111011111111111101000000000000010110000000000000110111111111111101100000000000001111000000000000101000000000000100110000000000000001;
143 : 11111111111111001111111111111110111111111110111111111111111010110000000000001111111111111111100011111111111110011111111111111001000000000000101111111111111101111111111111110100000000000001010000000000000011011111111111111010000000000000100111111111111111011111111111101010111111111111101100000000000011000000000000000010;
144 : 11111111111110100000000000001001111111111111101111111111111111010000000000001001000000000000010100000000000010100000000000011001111111111111010100000000000001001111111111110011000000000001010100000000000011110000000000011000000000000001000011111111111011100000000000001011000000000001011111111111111110000000000000001000;
145 : 00000000000110001111111111100010000000000000010100000000000011111111111111101100111111111111000111111111111100010000000000001110111111111111011011111111111011111111111111111101000000000001011111111111111101100000000000010011111111111111101000000000000100100000000000001001000000000001000011111111111110111111111111101011;
146 : 00000000000101001111111111110101000000000000011000000000000011110000000000001001000000000001010100000000000000111111111111101100000000000001000111111111111110101111111111111011000000000001011111111111111100000000000000000010000000000000001000000000000000111111111111110010000000000001001000000000000100000000000000010001;
147 : 00000000000011001111111111111100111111111111011100000000000100010000000000001001111111111111010011111111111101111111111111111111111111111110011000000000000011001111111111111011000000000001011111111111111110001111111111111001000000000001100100000000000011111111111111111111000000000000001000000000000001111111111111110001;
148 : 00000000001101111111111111101011000000000000110000000000000000111111111111110111111111111111100111111111111111011111111111111000000000000001000011111111111100001111111111110111000000000001011100000000000111011111111111100101111111111111101011111111111101010000000000010001000000000000001100000000000011011111111111110101;
149 : 00000000001101011111111111111001111111111111011000000000000010010000000000010101000000000000010000000000000101111111111111110100000000000000101111111111111010101111111111100011000000000010010100000000000010101111111111110011000000000000110100000000000010110000000000011001111111111111100011111111111001011111111111111111;
150 : 00000000001110010000000000000000000000000001001000000000000010001111111111101011000000000000001011111111111111011111111111101111111111111111110111111111111101111111111111101101000000000001010000000000000111100000000000001001111111111110111000000000001010110000000000100111111111111111101100000000000001001111111111110011;
151 : 00000000001111100000000000000100111111111110111011111111111110101111111111111000111111111111010011111111111001111111111111100101111111111111101000000000000011110000000000001010000000000010011000000000001010011111111111101100111111111111101100000000001011110000000000100010111111111110111011111111111101011111111111111010;
152 : 00000000001000101111111111111111000000000000100111111111111111011111111111101011111111111111100111111111111011110000000000000101000000000000000000000000000000100000000000010110000000000000000000000000001011111111111111111010111111111111001100000000000000010000000000001101111111111111100011111111111001001111111111100110;
153 : 00000000001110010000000000001001111111111111100011111111111000011111111111011011111111111111010111111111110000010000000000001000000000000001000011111111110111010000000000000101000000000000101000000000001111000000000000001001000000000000001000000000000100010000000000100010111111111111000111111111111101001111111111001110;
154 : 00000000001001001111111111111101000000000000001100000000000000001111111111001000000000000000000011111111111000000000000000011101000000000010011111111111111111000000000000001110000000000000110100000000001111111111111111100111111111111110101111111111111110011111111111111011111111111111000011111111110011001111111111101100;
155 : 00000000001001011111111111111000111111111111111111111111111001011111111111000101111111111111100111111111110110000000000000000100000000000001100011111111110100001111111111111101000000000001110000000000001100111111111111110100111111111111001000000000000010010000000000011111111111111110100111111111110010111111111111010110;
156 : 00000000001000011111111111111111000000000000101100000000000010001111111111011111111111111111100111111111110111111111111111110011000000000000110011111111110110011111111111110100111111111110111000000000000101101111111111011100111111111110011100000000000010110000000000000110111111111111111111111111101110011111111111110001;
157 : 00000000001101010000000000000001000000000000010011111111111111111111111111011110111111111111100111111111110011101111111111010001000000000001000011111111111100011111111111111111111111111111001100000000000110111111111111100000000000000000101000000000000101111111111111101110000000000001001011111111110110101111111111010111;
158 : 00000000000010101111111111111101111111111111011000000000000001111111111111010010000000000000100011111111101101011111111111101101111111111111111011111111111100111111111111110011111111111110001000000000000101101111111111111101000000000000100011111111111101011111111111110001111111111111111011111111110111011111111111110000;
159 : 00000000000011101111111111110101000000000000000000000000000111101111111111100110000000000001011011111111110010011111111111110001111111111110101111111111110111011111111111110000111111111101110100000000000011011111111111100010000000000001001100000000000010011111111111111110000000000000100011111111111011101111111111011011;
160 : 11111111111111110000000000000000111111111111011100000000000011011111111111110001000000000000110011111111110000101111111111111010111111111110100011111111111000110000000000010011111111111111011011111111111111001111111111011110111111111111011011111111111110001111111111110011000000000001111111111111111101101111111111111100;
161 : 00000000000100100000000000001000000000000000001100000000000110111111111111110010111111111111110111111111111011100000000000101010111111111101110011111111111001000000000000001001111111111111000111111111111001011111111111100001000000000001001011111111111011011111111111101111000000000000110111111111111111001111111111011111;
162 : 11111111111010110000000000100100111111111111100111111111111110111111111111111111000000000010001011111111111011000000000000101100111111111101110000000000000001001111111111110110111111111111101000000000000000101111111111111011111111111110101000000000000010100000000000001111000000000001100011111111111010011111111111100110;
163 : 11111111111110110000000000100101000000000000101000000000000000000000000000010110000000000000110100000000000011010000000000001110111111111111101111111111111011110000000000100010000000000000010111111111110110001111111111101101000000000000110111111111111101110000000000001100000000000010111100000000000001010000000000001101;
164 : 00000000000001000000000000001010000000000001011111111111111101110000000000000000000000000001010100000000000101000000000000000000111111111110010100000000000001000000000000011001000000000000111011111111111110000000000000010101111111111111011011111111111111011111111111100101000000000000111011111111111011101111111111101000;
165 : 11111111111101111111111111101101111111111111010000000000000000001111111111110011000000000001010100000000000000110000000000011000111111111111000100000000000011000000000000001000111111111111111000000000000001110000000000001100111111111111001100000000000001110000000000001110000000000000011111111111111100011111111111111000;
166 : 11111111111011011111111111110111000000000001000100000000000101100000000000000111111111111111010100000000000001011111111111111110000000000001000000000000000100110000000000000100000000000000111011111111111101000000000000001001000000000001100011111111111111110000000000000100000000000001010111111111111111111111111111111101;
167 : 11111111111101011111111111110011111111111111011100000000000010101111111111111110111111111110110111111111111010100000000000011000111111111110111111111111111010000000000000000010111111111111111011111111111101000000000000011001000000000001011100000000000000011111111111111000111111111111100011111111111111100000000000010111;
168 : 11111111111101110000000000000101000000000000010000000000000001101111111111110111000000000000000111111111111110101111111111110011000000000000111111111111111010110000000000001011111111111111111100000000000100010000000000001111111111111111110000000000000011000000000000010110000000000000001111111111111101110000000000010011;
169 : 00000000000010100000000000001010000000000000001111111111111101010000000000001110111111111110110100000000000001011111111111110011111111111111001100000000000100100000000000000111000000000001010111111111111111001111111111110001000000000000101000000000000001000000000000001001000000000000111000000000000100010000000000000101;
170 : 11111111111101001111111111110111000000000001010011111111111111101111111111111001111111111110100111111111111010110000000000001111000000000000101100000000000011101111111111111001111111111110111111111111111110010000000000000000000000000000111011111111111110011111111111110110000000000000000100000000000110000000000000000011;
171 : 00000000000100001111111111101111111111111111001100000000000011111111111111111100000000000000100100000000000010010000000000001100111111111111110011111111111110001111111111111110000000000001111000000000000000110000000000000101111111111111000011111111111101100000000000001100000000000001000100000000000101000000000000000111;
172 : 00000000000000100000000000000001111111111111011111111111111010001111111111110000000000000000111111111111111101010000000000001000111111111111001000000000000010111111111111110000000000000000110111111111111011111111111111111110000000000001010011111111111110011111111111110011111111111111101000000000000010001111111111111011;
173 : 00000000000001001111111111101001000000000000110100000000000011001111111111110011111111111111011100000000000001110000000000010011111111111111100000000000000000100000000000000011000000000010001100000000000000111111111111111100000000000001001000000000000100110000000000001010111111111111101111111111111100110000000000000100;
174 : 00000000000111101111111111100110111111111111001011111111111111100000000000000000111111111111100000000000000011110000000000001000000000000000101000000000000001111111111111110000000000000010011011111111111010001111111111101111000000000001001100000000000110110000000000000110000000000000110111111111111001100000000000011000;
175 : 00000000001000011111111111110100000000000000110011111111111111100000000000001001111111111111110011111111111110100000000000001110000000000001000100000000000100001111111111101100000000000010010011111111111110101111111111101001000000000001010000000000000100001111111111111001000000000001000111111111111101000000000000000010;
176 : 00000000001001101111111111101001111111111110100100000000000100111111111111111110111111111111100100000000001000011111111111100111111111111111111011111111111101101111111111010101000000000000100100000000000010111111111111101010111111111111111000000000000010010000000000001110000000000000111011111111111001100000000000000111;
177 : 00000000000111011111111111100100111111111111110100000000000111010000000000000000000000000000100000000000000100101111111111110110000000000000010000000000000010111111111111100011000000000000101000000000000101110000000000000101111111111110010100000000000011110000000000011001111111111111010111111111111101000000000000001101;
178 : 00000000000110010000000000000010000000000000000100000000000110100000000000000101111111111111111000000000000100101111111111101010000000000000010100000000000110100000000000000010000000000001010100000000001100100000000000000001111111111101111000000000001001000000000000011010000000000000101111111111111000001111111111111101;
179 : 00000000000011110000000000011011000000000001001100000000000000111111111111110101111111111111010100000000000001111111111111110011111111111110001100000000000001100000000000001100000000000001010111111111111110000000000000001110111111111111001100000000000010010000000000000000111111111110000011111111111000101111111111110100;
180 : 00000000000011100000000000100010111111111110110100000000000100011111111111101001111111111111000011111111111010011111111111101001111111111110101000000000000010110000000000011010000000000001101100000000000011000000000000101110111111111110011000000000000000100000000000100010111111111111001000000000000001111111111111010111;
181 : 00000000001001110000000000010111000000000001011000000000000100101111111111011110000000000001000111111111111010100000000000000110111111111101101011111111111001100000000000001000000000000001001100000000000101110000000000101110111111111101001100000000000011111111111111111010111111111101100000000000000010011111111111001100;
182 : 00000000000111110000000000001101000000000000000100000000001000001111111111101110000000000001010111111111111110101111111111101111111111111110100100000000000000010000000000001101000000000000111000000000001011000000000001000000111111111111010100000000000010111111111111110001111111111101110000000000000010101111111111011011;
183 : 00000000000111111111111111111011000000000000101000000000000011011111111111100001111111111111011111111111111100111111111111100110111111111110101100000000000000110000000000011100111111111111010000000000001011100000000000101001111111111111001100000000000001001111111111010000111111111100101100000000001011001111111111101001;
184 : 00000000000110011111111111101110000000000000010011111111111101111111111111011110000000000000001000000000000000101111111111101111111111111011010011111111111010110000000000010011000000000000110100000000001100000000000000001111111111111110101111111111111010111111111111000100111111111100011000000000000110101111111111010110;
185 : 00000000000010001111111111111001111111111110111111111111111111111111111111100011000000000000011011111111111100111111111111001011111111111101101111111111111100110000000000000100000000000000001111111111111111110000000000011000111111111110100000000000000100001111111111010101111111111110100000000000000110110000000000001000;
186 : 00000000000110010000000000010001000000000001000111111111111101101111111111101110000000000001000011111111110111111111111111100011111111111101110111111111110100101111111111111001111111111101100100000000000001110000000000000111111111111101110100000000000001001111111111010110111111111110110000000000000110001111111111101010;
187 : 00000000000101010000000000111101111111111111011000000000000001110000000000000101111111111111111111111111110100100000000000000101111111111111000100000000000000100000000000000011111111111111010000000000000011011111111111101010111111111110100011111111111110011111111111110100000000000000001000000000000001001111111111011011;
188 : 00000000000010110000000000100101111111111111001000000000000011011111111111100000000000000000101011111111110011101111111111110111111111111110101111111111111110110000000000001011111111111110011100000000000100011111111111101001111111111110100100000000000100011111111111111001000000000000000100000000000001001111111111101011;
189 : 00000000000000110000000000100100000000000000110000000000000001010000000000001000111111111111110111111111111010000000000000000110111111111111111100000000000010100000000000000000111111111111011100000000000010111111111111110101111111111100100100000000000000111111111111010111000000000001010111111111111001110000000000001111;
190 : 00000000000100000000000001000000111111111111101100000000000101100000000000001000000000000000001011111111111011000000000000000110000000000000111100000000000000000000000000011001111111111101010011111111111010101111111111011000111111111100100100000000000011101111111111010101000000000001010011111111111110111111111111100100;
191 : 11111111111101000000000001001010000000000000110011111111111111110000000000000101000000000000101011111111111101001111111111110111000000000001001000000000000110000000000000101000111111111111011011111111111001101111111111101010111111111110010011111111111111001111111111100100000000000011001011111111111110101111111111100100;
192 : 00000000000100010000000000101000000000000001001011111111111010011111111111101011000000000000010100000000000011011111111111111010000000000000010100000000000110010000000000011100111111111110110011111111110111100000000000000100111111111101110100000000000100001111111111111000000000000011100111111111111010101111111111111001;
193 : 11111111111111000000000000010101111111111111101011111111111101010000000000001001000000000000110000000000000001111111111111110100000000000000111000000000000101111111111111111001000000000001000111111111111101110000000000001111111111111111111011111111111110101111111111100110000000000000100011111111111111000000000000000010;
194 : 11111111111101000000000000010001111111111111001111111111111101011111111111110011000000000000100000000000000010100000000000010010111111111111100111111111111011111111111111111000111111111111000111111111111101110000000000001000000000000000010100000000000100100000000000001100000000000001001000000000000000100000000000001000;
195 : 11111111111111000000000000000100111111111111000100000000000001011111111111111001111111111111110011111111111011110000000000001010000000000000010111111111111101111111111111110000000000000001000111111111111101000000000000001000111111111111101111111111111110101111111111111001111111111111000111111111111100110000000000000101;
196 : 11111111111101011111111111101010111111111111111011111111111010111111111111111100000000000000110111111111111111110000000000001101111111111111111011111111111101111111111111110001111111111111010011111111111111100000000000000011000000000001001111111111111011001111111111110000111111111111001100000000000011101111111111111001;
197 : 11111111111011101111111111111101111111111111001011111111111110000000000000000010000000000000100011111111111111111111111111111011000000000000110111111111111110100000000000001000111111111111010111111111111010011111111111101111000000000000111011111111111111111111111111111011111111111111010100000000000100100000000000011000;
198 : 11111111111011111111111111101011000000000000001000000000000010100000000000010101111111111110110000000000000000010000000000000101000000000001001011111111111101000000000000010111111111111111000111111111111011010000000000000001000000000000111111111111111100010000000000001010111111111111001000000000000001000000000000011000;
199 : 11111111111110110000000000001011000000000001000011111111111111001111111111111001111111111110110100000000000010011111111111110111111111111110111111111111111110001111111111101101000000000000100111111111111001101111111111101110111111111111111111111111111100001111111111101011000000000000001011111111111110100000000000000111;
200 : 00000000000001101111111111111001000000000001000111111111111100110000000000000110000000000000010100000000001001010000000000010110111111111111000111111111111101000000000000010111000000000010010000000000000000001111111111101100111111111111111011111111111011011111111111111010111111111110011111111111111111010000000000000001;
201 : 00000000000010101111111111010111111111111111010111111111111111111111111111111010111111111111001100000000000010111111111111111010111111111111101100000000000011000000000000010000000000000010100111111111111101100000000000001011111111111111110100000000000010011111111111111111000000000000010000000000000001000000000000000111;
202 : 00000000001011001111111111111011111111111110110100000000000100000000000000000001111111111111011000000000001010001111111111111000000000000000011100000000000101001111111111110101000000000010010100000000000100011111111111100010000000000001001111111111111110001111111111101001111111111111000111111111110111100000000000001101;
203 : 00000000000110001111111111100111111111111110100100000000000000011111111111101001000000000001001000000000000111110000000000000011000000000000101100000000000011010000000000000010000000000010011000000000000110001111111111101011111111111111011100000000000100100000000000000110000000000001010011111111111010011111111111111000;
204 : 11111111111110111111111111111011000000000000000011111111111111111111111111110010000000000000100000000000001001001111111111011111000000000000100000000000001000011111111111011000000000000000101000000000001001101111111111110111111111111101111000000000000000100000000000001000000000000001000111111111111000110000000000000101;
205 : 00000000000010001111111111111110111111111111101100000000000111000000000000000111000000000001111100000000001101111111111111011101111111111110111100000000000100001111111111100100000000000001011000000000001001010000000000000100111111111110000000000000000111011111111111101011000000000001001011111111111110000000000000000001;
206 : 11111111111111100000000000101001000000000000111000000000000001010000000000001011000000000000100100000000001100011111111111110001111111111111010011111111111110101111111111110101000000000000101100000000000110000000000000010111111111111101111000000000001010101111111111100111111111111110001011111111111110101111111111110101;
207 : 00000000000000010000000000011000111111111111101100000000000011101111111111111000000000000000110100000000000011011111111111100001000000000001100000000000000011110000000000000111000000000001101100000000000001000000000000101110111111111110111000000000000001110000000000010011111111111100111000000000000001001111111111011001;
208 : 00000000000100000000000000010001111111111111100100000000001010011111111111110000000000000001010000000000001011111111111111111011111111111101101111111111111110110000000000010100000000000000011011111111111111110000000001001111111111111110000011111111111011010000000000001101111111111011111111111111111110101111111111010010;
209 : 11111111111100010000000000011011000000000000101000000000000001011111111111110010000000000001101000000000001000011111111111100000111111111111000111111111111010011111111111110011000000000000011000000000000001000000000001001011111111111110000000000000000000001111111111111011111111111101100100000000000110101111111111011101;
210 : 00000000000000110000000000000101000000000000010100000000000100001111111111110001000000000000110000000000000010101111111111101011111111111110100111111111111100111111111111110101000000000001000100000000000001100000000001100100000000000000011011111111111101110000000000000110111111111011111000000000010100101111111111010110;
211 : 11111111111111111111111111111001000000000000101000000000000111011111111111010100000000000001011011111111111100011111111111011100111111111011110000000000000101110000000000001001000000000000010100000000000111100000000001000001111111111110111011111111111110001111111111101111111111111110001000000000011111001111111111101010;
212 : 11111111111110010000000000110000000000000001001100000000000011001111111111100000000000000000111000000000000010001111111111111000111111111011101011111111111011111111111111110101111111111110110000000000000110110000000000100000111111111101000100000000000010111111111111000110111111111101111100000000010100010000000000000100;
213 : 11111111111111000000000000100110000000000000110111111111111110001111111111101110111111111111110100000000000010000000000000000011111111111010101011111111111111001111111111111000000000000000101000000000000101011111111111111111111111111111000100000000000011111111111111001101111111111110110100000000010001110000000000001011;
214 : 11111111111101000000000000011100000000000001101100000000000010011111111111100000111111111111111100000000000010100000000000010001111111111100101000000000000001101111111111110011000000000001010000000000000000001111111111101111111111111100000111111111111110001111111111001110111111111110111000000000000111010000000000001100;
215 : 11111111111101110000000000000110111111111111101100000000000011011111111111110011000000000000111100000000000100000000000000001101111111111110001011111111111001110000000000010010111111111111011011111111111101111111111111100111111111111011110000000000000110101111111111111111111111111110100011111111111110110000000000010001;
216 : 00000000000100100000000000001011000000000001000000000000000000101111111111101001000000000000011000000000000000110000000000000010111111111101010011111111111110100000000000011100000000000001011000000000000001001111111111111110111111111011010100000000000011001111111111110100111111111111100111111111110110000000000000010000;
217 : 00000000000011000000000000100001000000000000110111111111111100000000000000001101111111111111101000000000000011000000000000000011111111111111001011111111111101100000000000000101111111111111110100000000000101101111111111111110111111111101010111111111111111000000000000001111000000000000111011111111111110001111111111111111;
218 : 00000000001000110000000000111001111111111111110100000000000000110000000000001011111111111111011100000000000001001111111111100000111111111111101100000000000101101111111111110110111111111110100100000000000000101111111111100001111111111110010000000000000000111111111111100100000000000001011011111111110011101111111111110111;
219 : 00000000000010100000000000100111111111111111111111111111111111000000000000010001111111111111001000000000001000001111111111110010000000000001000100000000001011100000000000001100111111111110011011111111111011001111111111101011111111111101100111111111111011111111111110111101000000000001010111111111111001010000000000000110;
220 : 11111111111100000000000000110011000000000000010111111111111001101111111111111010000000000000100000000000000110101111111111011100000000000000000100000000010001101111111111111101111111111101110011111111111010100000000000000101111111111101100011111111111011101111111111101110000000000010101111111111110110111111111111110000;
221 : 00000000000110010000000000100100000000000000101111111111111010101111111111111111111111111111101000000000001100001111111111101010000000000000101100000000000010000000000000010101000000000000010111111111111101001111111111110011111111111111011111111111111100111111111111100011000000000010001111111111111010011111111111101110;
222 : 11111111111111110000000000010000000000000000001100000000000011000000000000010110000000000000100111111111111111110000000000001011111111111110101100000000000100110000000000000110000000000001001100000000000011001111111111111001111111111111111000000000000011111111111111110000000000000000000011111111111101110000000000000111;
223 : 00000000000001110000000000001110000000000000001111111111111100110000000000010001000000000000000000000000000011000000000000001111111111111110111100000000000010000000000000000010111111111111100100000000000000010000000000010101000000000000100100000000000000001111111111110000000000000000101011111111111011111111111111111001;
224 : 11111111111110011111111111110000000000000000011011111111111111000000000000001110000000000001000111111111111100000000000000000000000000000001001011111111111010100000000000001111000000000000111100000000000000100000000000001001000000000000010000000000000010011111111111111000000000000000010011111111111101100000000000010000;
225 : 11111111111010100000000000000001000000000001000111111111111100010000000000000010111111111110101000000000000001011111111111110010000000000000100100000000000011011111111111110011111111111110111111111111111111100000000000000001111111111111111000000000000011110000000000001100111111111111111000000000000011100000000000000001;
226 : 00000000000011001111111111110011111111111111010000000000000000101111111111101111111111111111001111111111111011110000000000000001111111111111101111111111111100011111111111111011111111111111111100000000000010010000000000001001000000000000100000000000000010111111111111101110000000000000100100000000000100110000000000001111;
227 : 00000000000100001111111111110011111111111111101000000000000011010000000000000000111111111110111011111111111111111111111111111011111111111111101111111111111101110000000000000001000000000010001111111111111101011111111111111111000000000000010000000000000100111111111111111011000000000000101111111111111111100000000000010101;
228 : 00000000000011111111111111111010111111111111110011111111111011011111111111111100000000000000010100000000000100011111111111110111111111111111001111111111111100110000000000001111000000000010000100000000000001110000000000001001111111111111001000000000000011110000000000000110111111111110010111111111111011010000000000000010;
229 : 00000000000100111111111111111011111111111111011111111111111010000000000000000111111111111111111100000000000111100000000000011001111111111111110000000000000010101111111111111100000000000011010100000000000011111111111111110100000000000000000000000000000010110000000000001100111111111111000111111111110111000000000000100111;
230 : 00000000000101010000000000000000111111111111111111111111111010111111111111110010000000000001000000000000000101111111111111101011000000000001010000000000000000110000000000000001000000000000111100000000000111101111111111111011111111111110110011111111111111011111111111111011111111111111111111111111111100000000000000001101;
231 : 00000000000011001111111111110001000000000000110100000000000001101111111111100100111111111111110000000000001010111111111111111010000000000001001000000000000010111111111111101110111111111111111000000000000000111111111111111101111111111110111000000000000111110000000000000000000000000001001011111111111010000000000000100010;
232 : 11111111111001111111111111111001111111111111001011111111111101111111111111111011111111111111110000000000001010011111111111110101111111111110100111111111111110111111111111110010000000000000001100000000000000101111111111110010111111111110101100000000000011111111111111110101000000000000011000000000000011101111111111111010;
233 : 11111111111011101111111111111001111111111111010111111111111110001111111111111000111111111111101000000000001110011111111111011101111111111111011100000000000011011111111111101000000000000001011000000000000001110000000000000110111111111110111000000000001011010000000000000000111111111111101011111111111100001111111111111011;
234 : 11111111111101000000000000010011000000000001000000000000000001111111111111101110000000000001011000000000001000001111111111010111111111111110111011111111111101111111111111110001000000000000110000000000000101000000000000010111111111111110000000000000000000000000000000000100111111111111011111111111111101101111111111110111;
235 : 11111111111000110000000000001000111111111111100000000000000000011111111111111101000000000001111000000000001111011111111111110000000000000000000100000000000000001111111111111001111111111111100011111111111100100000000001000010111111111110000100000000000010000000000000001010111111111111100111111111111001001111111111101011;
236 : 11111111110010110000000000000000000000000000111100000000000010011111111111100011000000000010011100000000001001001111111111100110111111111111100111111111110100101111111111111110111111111111100000000000000010000000000000100001111111111110001000000000000000100000000000100011111111111110100000000000000001001111111111110010;
237 : 11111111111001001111111111011011000000000000111111111111111101001111111111101111000000000001010100000000000001001111111111111000111111111111000111111111111000010000000000001001111111111111110000000000000000000000000000100000111111111111011111111111111101010000000000010001111111111011001000000000001010001111111111000100;
238 : 11111111111000101111111111110001000000000000001111111111111011101111111111011111000000000001111100000000000110000000000000001000111111111101001111111111111000011111111111011111000000000000101011111111111110000000000000101000111111111110100000000000000001100000000000010011111111111001011100000000010110111111111111001000;
239 : 11111111111100100000000000010001111111111111101011111111111111101111111111010001000000000001000000000000000010110000000000010000111111111101111100000000000100111111111111110110000000000000111100000000000111001111111111110010111111111111111111111111111100101111111111111000111111111001111100000000001111111111111111100101;
240 : 11111111111101110000000000101111000000000000000011111111111010101111111111001101000000000000000000000000001011001111111111111100111111111110100100000000000001001111111111101110000000000001111111111111111111101111111111101101111111111101011000000000000010101111111111100100111111111100111100000000010010101111111111110011;
241 : 11111111111111100000000000100000111111111111110011111111111111111111111111011111000000000000000100000000000110000000000000011000111111111100100000000000000001010000000000000011000000000000111000000000000100101111111111111000111111111100001011111111111001101111111111111000111111111100100000000000000011001111111111110010;
242 : 00000000000010110000000000011010000000000000111000000000000011111111111111111101000000000000000000000000001000101111111111111010111111111101001000000000000100010000000000010110000000000010101011111111111101111111111111110111111111111010000111111111111011001111111111101111111111111101111100000000000100001111111111111001;
243 : 00000000000001110000000000101010000000000001011100000000000001110000000000010011111111111110001100000000000110101111111111110111111111111110100000000000001001010000000000100000000000000010011100000000000010001111111111111000111111111010001111111111111001101111111111101111111111111110011011111111111110011111111111111101;
244 : 11111111111101010000000000110010000000000000111000000000000000110000000000010011111111111110111000000000000101011111111111110101111111111101111100000000000110100000000000000000000000000001111000000000000011101111111111111101111111111100010000000000000001101111111111111101111111111110101111111111111101001111111111111000;
245 : 00000000000011010000000000000011000000000001000111111111111011110000000000001010111111111111000100000000001011011111111111100110111111111111111100000000000111100000000000001001000000000000011111111111111111101111111111110101111111111011111011111111111101001111111111110011111111111101101011111111111110000000000000001111;
246 : 00000000000101010000000000010000111111111111110111111111111100110000000000000000111111111110110100000000001011111111111111101000111111111111000100000000000110100000000000001101000000000000011100000000000000001111111111111100111111111110000011111111111001011111111111101111111111111110010111111111111000101111111111110011;
247 : 00000000000110100000000001011001111111111110100011111111111011100000000000001001111111111111011100000000010001111111111111001110000000000000010000000000001001010000000000010110111111111111011111111111110111101111111111110111111111111110010011111111111001001111111111010011000000000001001111111111110111100000000000000101;
248 : 00000000000110000000000001010010000000000000000100000000000011000000000000001111111111111111011100000000010100001111111111110100111111111111100000000000010011100000000000000111111111111101101111111111110110011111111111110110111111111101010011111111111100001111111111011011000000000010001111111111111001111111111111110000;
249 : 00000000000111110000000000111000111111111111001011111111111100111111111111111001000000000000101000000000000110011111111111100101111111111110100100000000000110111111111111111110111111111110111111111111111101000000000000000010000000000000001011111111111111101111111111110101000000000001000011111111111111110000000000001000;
250 : 00000000000101000000000000001011111111111111110000000000000011000000000000000010111111111111011111111111111111110000000000000101000000000000100000000000000110011111111111111010111111111111101111111111111010011111111111110100000000000000101011111111111101101111111111110101111111111111001111111111111110011111111111110111;
251 : 00000000000000001111111111101100000000000000100000000000000000111111111111110010111111111111111000000000000001100000000000001101000000000000101000000000000010010000000000001101111111111111111111111111111001111111111111110010000000000000100011111111111101011111111111110001111111111110111100000000000001000000000000001001;
252 : 00000000000000010000000000001011000000000000010000000000000010000000000000001010111111111111101000000000000010010000000000000100000000000000101011111111111011100000000000000100111111111111001011111111111100100000000000001000000000000001010111111111111100011111111111101111111111111111001000000000000001011111111111110001;
253 : 11111111111011010000000000001010111111111111100011111111111111101111111111111101000000000000111100000000000000101111111111110100111111111111010000000000000001110000000000000010111111111111110111111111111100111111111111110100000000000000010111111111111111010000000000000001000000000001010011111111111110100000000000001001;
254 : 11111111111110001111111111111011000000000000110100000000000010000000000000000010000000000000101011111111111011001111111111110100000000000001001100000000000010000000000000001010000000000000000000000000000010011111111111110111000000000001100100000000000011110000000000000001000000000000100000000000000110001111111111111001;
255 : 11111111111111011111111111100010111111111111100011111111111111101111111111111101000000000000110100000000000100100000000000010010111111111110110100000000000001010000000000001110000000000001010000000000000011101111111111111010111111111110101111111111111100100000000000010010111111111111100011111111111110110000000000100010;
256 : 00000000000110101111111111111111111111111111111111111111111010111111111111101000000000000000100000000000000111010000000000000000000000000000010011111111111011110000000000001010000000000001010011111111111110000000000000000110111111111110110111111111111100000000000000011011111111111110010011111111111100100000000000010000;
257 : 11111111111101011111111111100011111111111110101011111111111100010000000000001001111111111111001100000000000010000000000000001001111111111111111000000000000000111111111111100110111111111111000000000000000100011111111111011010111111111111000100000000000111001111111111110101111111111110100111111111111111100000000000010111;
258 : 11111111111101011111111111100010111111111110111011111111111111011111111111011010000000000010001011111111111110010000000000001100111111111111100100000000000001111111111111110101000000000000000000000000000010000000000000001011111111111101011100000000000000101111111111101111000000000001010111111111111011110000000000011011;
259 : 11111111110100111111111111101101000000000000110000000000000011101111111111100001000000000001000000000000000100001111111111110010111111111111001100000000000011001111111111100010000000000000000000000000000010001111111111111100111111111110011100000000000110100000000000010010000000000000110111111111111111000000000000000101;
260 : 00000000000010101111111111011111111111111110101111111111111111101111111111011111000000000001110000000000001000101111111111110101111111111100111100000000000000000000000000000001111111111101011100000000000101000000000000001000111111111111001100000000001001101111111111110001111111111111001000000000000000110000000000001101;
261 : 11111111111100001111111111111101111111111110100100000000000011101111111111100011000000000001110000000000000010011111111111101100111111111111101000000000000101110000000000001110111111111101111000000000000011010000000000010001111111111111100000000000001010001111111111101100000000000000010000000000000011000000000000010110;
262 : 11111111111000110000000000010101111111111110110100000000000001111111111111111001000000000001001000000000000010001111111111010000111111111111101111111111111010110000000000001110111111111100111000000000000010010000000000011001111111111101011100000000000110000000000000010001111111111111101011111111111111010000000000100000;
263 : 11111111110101010000000000111100000000000000101111111111111010111111111111111010000000000010010000000000000101001111111111110011111111111111001100000000000100000000000000001011111111111001000111111111111111000000000000100011111111111110010011111111111100100000000000001011000000000000000100000000000111010000000000001010;
264 : 11111111101100010000000000000110000000000000111111111111111101111111111111111001000000000010011100000000001001011111111111010011000000000000011111111111110111111111111111111100111111111001011000000000000010101111111111111100111111111101101011111111110110000000000000101101111111111110100000000000001001010000000000001111;
265 : 11111111110000100000000000100001111111111111110011111111111101111111111111110010000000000001010000000000000100111111111111101001111111111110001011111111111100001111111111110110111111111100101100000000000011111111111111100101111111111111110011111111111100010000000000001001111111111001011100000000001010100000000000010100;
266 : 11111111110001110000000000000110111111111110110100000000000000011111111111100111000000000000110000000000001100100000000000011100111111111110110111111111111111011111111111011011000000000001001100000000000111110000000000000001000000000000101111111111110101110000000000001001111111111000101100000000001101100000000000101101;
267 : 00000000000000001111111111110010111111111111110111111111111110111111111111010101111111111110100100000000001111100000000001000101111111111011101100000000000001001111111111010010000000000000001100000000000100001111111111110011111111111111101011111111111000101111111111111000111111111001110000000000010000110000000000100011;
268 : 11111111111100001111111111111011111111111111100100000000000001110000000000000001111111111101111100000000010000100000000000111101111111111111100100000000000001111111111111010101000000000001010000000000000001101111111111011000111111111101110011111111111000011111111111100000111111111100100000000000000101010000000000001011;
269 : 00000000000000100000000000000001111111111110001000000000000000000000000000000100111111111101111100000000001001000000000000010111111111111111001000000000000110001111111111100010000000000000101000000000000011000000000000000000111111111001100111111111111110011111111111100100111111111101001000000000000100010000000000001101;
270 : 11111111111111010000000000100001111111111111001011111111111010000000000000100000111111111101001000000000001011011111111111110111000000000000111000000000000100101111111111001011000000000010011100000000000100011111111111111010111111111001000011111111111011001111111111110000111111111100011100000000000100100000000000000111;
271 : 11111111111011000000000000011010000000000000000100000000000001010000000000000101111111111110101000000000001010101111111111110011111111111111111100000000000111011111111111010010000000000010000000000000000011001111111111111001111111111100101011111111111101101111111111011010111111111011111011111111111100100000000000001001;
272 : 00000000000011000000000000010010111111111111011000000000000101010000000000001111111111111101011000000000001101101111111111011010000000000000001100000000000110111111111111011101000000000001111000000000000111001111111111110001111111111100010111111111111100001111111111111001111111111101000011111111111100010000000000001101;
273 : 00000000000111000000000000001001111111111110110000000000000010100000000000001111111111111111001000000000010001101111111111010001111111111111010000000000000110111111111111100100000000000000001100000000000010100000000000000001111111111101101011111111111110111111111111101111111111111100111111111111110010110000000000000111;
274 : 00000000000100010000000000100000000000000000101111111111111101110000000000010000111111111111111100000000001110001111111111010001000000000000111100000000001110111111111111110101111111111111101000000000000011100000000000001000111111111110010111111111111101011111111111010011111111111101100111111111111000110000000000100000;
275 : 00000000000110000000000001010001111111111111000000000000000010101111111111111100000000000000010100000000001010011111111111010011000000000000100000000000000111001111111111111010111111111101111100000000000010011111111111110010111111111111000111111111111110101111111110110110111111111111110111111111111001111111111111111101;
276 : 00000000000111000000000001110001000000000000101000000000000101011111111111111101111111111111111100000000010011011111111111101011111111111111011100000000010001010000000000001111111111111111101111111111111010001111111111110001111111111111111000000000000100111111111111011001111111111111101111111111111011010000000000000100;
277 : 00000000000011100000000000110111000000000000111100000000000110011111111111110101111111111111011100000000010000010000000000000011111111111111110000000000001011000000000000011100111111111111101111111111111110000000000000010000111111111111110011111111111100111111111111011101000000000001011000000000000011011111111111111110;
278 : 00000000000010100000000000011101000000000001010111111111111110001111111111101110111111111110101000000000000100000000000000010101111111111111100000000000000001010000000000010000000000000000001100000000000100111111111111110100000000000000100000000000000000111111111111101110111111111111110111111111111011000000000000001000;
279 : 11111111111101001111111111110011000000000001010100000000000000101111111111111011000000000000100011111111111100110000000000010000111111111110111000000000000001110000000000001111111111111111101000000000000011101111111111110001111111111110110100000000000100101111111111110000111111111111001100000000000100001111111111101111;
280 : 11111111111011010000000000010001000000000000111111111111111011111111111111111000000000000000111100000000000100111111111111110110000000000000100100000000000100100000000000001111000000000000100100000000000000010000000000001010111111111110111100000000000100110000000000001101000000000000010011111111111111011111111111111010;
281 : 11111111111100011111111111110010111111111110110100000000000001110000000000000001000000000000011100000000000010010000000000000011111111111111000000000000000010111111111111110111000000000001010100000000000010100000000000000010111111111111110000000000000100000000000000001100111111111110110011111111111011010000000000001101;
282 : 00000000000100011111111111111010000000000000110100000000000011100000000000010010111111111111010011111111111111110000000000000000111111111110100111111111111011001111111111110101000000000001101000000000000100100000000000000010000000000000001000000000000000110000000000010000000000000001000011111111111101101111111111110110;
283 : 00000000000010011111111111110010000000000001001111111111111110011111111111101000000000000000001100000000000011000000000000000100111111111110010111111111111101101111111111111111000000000010011000000000000011100000000000001110111111111111001011111111111110100000000000010010111111111110110000000000000100100000000000100111;
284 : 11111111111100011111111111101000000000000000011100000000000010100000000000000101111111111111110011111111111101100000000000001100111111111110110100000000000101010000000000000110000000000001000100000000000000001111111111111010000000000000001011111111111111110000000000000010111111111110011011111111111100000000000000100110;
285 : 00000000000000101111111111010101111111111111001111111111111000101111111111101110111111111110111100000000000000101111111111111111000000000001101011111111111101011111111111101111000000000000000111111111111110011111111111111110111111111111111111111111111101101111111111111101111111111111111011111111111111100000000000011101;
286 : 11111111110110001111111111110111111111111110111011111111111110001111111111011010000000000001011111111111111011101111111111111010000000000000001000000000000101011111111111101010111111111100011100000000000011111111111111111001111111111101010100000000000110000000000000000001000000000000100000000000000111010000000000011011;
287 : 11111111111000111111111111110100111111111110110100000000000001101111111111101011111111111111100011111111111111110000000000000110111111111110100000000000001111110000000000000000111111111011100100000000000011000000000000100110000000000000011000000000000001101111111111010011000000000001111000000000000010000000000000101110;
288 : 11111111110101010000000000100110111111111111111111111111111111101111111111011011000000000001100011111111110110001111111111101110111111111101110100000000001110010000000000010100111111111011001111111111111101110000000000000111000000000000000100000000001011101111111111110011000000000000110100000000000101000000000000101001;
289 : 11111111110001010000000000000100111111111111010011111111111011111111111111110000000000000001000111111111111111101111111111011010000000000000000100000000001011010000000000001101111111111001011011111111111101000000000000011011111111111101101100000000001001111111111111110100000000000001111100000000000111010000000000100001;
290 : 11111111110100000000000000000010111111111111000011111111111111011111111111110111000000000000111111111111111001001111111111001100111111111110111100000000000111000000000000011100111111110111111000000000000110010000000000010111111111111101110100000000000100111111111111011010000000000010100000000000001011100000000000111010;
291 : 11111111101110000000000000101110111111111110101011111111110111010000000000010001000000000000000011111111111110001111111111010110111111111111001100000000000110010000000000010011111111110111110100000000000100101111111111100101111111111101010111111111111000011111111111100101000000000000011100000000001110100000000000011000;
292 : 11111111101100110000000001001011000000000000011011111111111000100000000000001001111111111111100100000000000001101111111111011000111111111111101100000000000010010000000000011001111111111000110111111111111001011111111111001010111111111110101111111111111100001111111110111010111111111111100100000000001001000000000000101111;
293 : 11111111110101010000000000101001000000000001100011111111111000101111111111110110111111111110111000000000001111011111111111110011000000000000011100000000000011010000000000110011111111111110010011111111111100001111111111110101000000000000000011111111110011111111111110111111111111111010111100000000000101110000000000111001;
294 : 11111111110101011111111111011011000000000000101011111111111011111111111111010101111111111111010000000000010001010000000001011011111111111101000111111111110110001111111111111001000000000000001011111111111101011111111111110100000000000010011011111111110100111111111111100000111111111000010000000000000111000000000001000011;
295 : 00000000000000011111111111000110111111111110100100000000000000110000000000001100111111111101010000000000010010000000000001100010111111111110000111111111101110010000000000000101000000000010000011111111111110001111111111111100111111111110011011111111111110011111111111100101111111111101001100000000000010100000000000010001;
296 : 00000000000000001111111111000000111111111111010100000000000011110000000000111011111111111100100000000000010100100000000000111010111111111111000111111111110111001111111111110000000000000011000111111111111111111111111111101100111111111100111011111111111010111111111111110001111111111101101100000000000011100000000000100100;
297 : 11111111111111111111111111100110111111111110100100000000000000010000000000010010111111111101110000000000001010001111111111111010000000000010011011111111111001011111111111101011000000000001101100000000000011011111111111110110111111111100001011111111111101011111111111101000111111111100011111111111111101110000000000101111;
298 : 11111111111010111111111111100100000000000001000111111111111110110000000000000111111111111101101000000000000001100000000000000101000000000001110111111111111010111111111111011111000000000010011000000000001000101111111111101100111111111011110011111111111001111111111111101110111111111100001000000000001000010000000000010100;
299 : 11111111111101011111111111110111000000000001011011111111111011110000000000001011111111111101101000000000000111111111111111100011000000000000110011111111111100011111111111101111000000000001111000000000001001001111111111100111111111111110001100000000000000101111111111100000111111111100110000000000000110010000000000011010;
300 : 11111111111110110000000000000001111111111111111000000000000101000000000000011000111111111101111000000000001100001111111111101011000000000000110111111111111010111111111111101001000000000010111000000000000110101111111111011001111111111100101111111111111010111111111111101100111111111100110100000000000010000000000000000101;
301 : 00000000000010100000000000001110000000000001011000000000000110001111111111101110111111111101101000000000000111111111111111100010111111111111010011111111111110101111111111101001000000000000101100000000001110001111111111110001111111111110000111111111111111101111111111111111111111111011011011111111111100100000000000100111;
302 : 11111111111101111111111111111001000000000000011000000000000011001111111111110100111111111110101100000000000011111111111111110001000000000001001100000000000111101111111111101001111111111110010000000000001100100000000000000000111111111110010011111111111111101111111111101000111111111100100111111111111001000000000000101010;
303 : 11111111111101000000000000110100000000000000101100000000000110011111111111011110111111111111010000000000000010000000000000000101000000000000101000000000000111001111111111101010111111111111110100000000001100100000000000010110000000000000100111111111110111011111111111011011111111111100101111111111111100000000000000100110;
