DEPTH = 1;
WIDTH = 1600;
ADDRESS_RADIX = DEC;
DATA_RADIX = BIN;
CONTENT
BEGIN
0 : 1111111111001101000000000010100011111111101000111111111100001101000000001000111011111111100110100000000000000000111111111000011000000000011111101111111011110100000000000000010011111111101111110000000000011110111111111010001000000000001101100000000011001111111111110110011111111111101101011111111110111101111111111010001111111111101111111111111110000000000000000111011111111111010000101111111110101001111111111011010011111111101101110000000011111011111111111110000111111111101101001111111111001100111111101111011100000000010110000000000010011101111111111000000000000000001001000000000000000111111111111111011011111110111101011111111110111001000000000011000100000000011010111111111110110011111111110000111011111111100110101111111101110101111111110010111111111111101011011111111100010000111111111110110011111111011111010000000000110010111111111000010000000000011000101111111111000000111111111101111011111111110111011111111111000100111111110111100011111110100101100000000001000111111111110110111100000000010101111111111100101011000000000100101011111111011110011111111101001010111111110101001100000000000010010000000000011000111111111100101111111110110001111111111111001011111111110100001011111111110110101111111110110111000000001010000011111111100101010000000000010010111111111100011011111111100001111111111011100011000000000111110100000000010001101111111111001001111111111100001011111111011101011111111111001101000000001001101111111111000111000000000000001010000000000011000000000000010001011111111101101001111111111110110100000000000010100000000011011101111111111100011111111111001011111111111100001100;
END;
